11
00
00
01
00
01
11
01
11
00
00
01
00
01
11
01
11
00
00
01
00
01
11
01
11
00
00
01
00
01
11
01
11
00
00
01
00
01
11
01
11
00
00
01
00
01
11
01
11
00
00
01
00
01
11
01
11
00
00
01
00
01
11
01
11
00
00
01
00
01
11
01
11
00
00
01
00
01
11
01
11
00
00
01
00
01
11
01
11
00
00
01
00
01
11
01
11
00
00
01
00
01
11
01
11
00
00
01
00
01
11
01
11
00
00
01
00
01
11
01
11
00
00
01
00
01
11
01